{"<s>":0,"<pad>":1,"</s>":2,"<unk>":3,"<mask>":4,"!":5,"\"":6,"#":7,"$":8,"%":9,"&":10,"'":11,"(":12,")":13,"*":14,"+":15,",":16,"-":17,".":18,"/":19,"0":20,"1":21,"2":22,"3":23,"4":24,"5":25,"6":26,"7":27,"8":28,"9":29,":":30,";":31,"<":32,"=":33,">":34,"?":35,"@":36,"A":37,"B":38,"C":39,"D":40,"E":41,"F":42,"G":43,"H":44,"I":45,"J":46,"K":47,"L":48,"M":49,"N":50,"O":51,"P":52,"Q":53,"R":54,"S":55,"T":56,"U":57,"V":58,"W":59,"X":60,"Y":61,"Z":62,"[":63,"\\":64,"]":65,"^":66,"_":67,"`":68,"a":69,"b":70,"c":71,"d":72,"e":73,"f":74,"g":75,"h":76,"i":77,"j":78,"k":79,"l":80,"m":81,"n":82,"o":83,"p":84,"q":85,"r":86,"s":87,"t":88,"u":89,"v":90,"w":91,"x":92,"y":93,"z":94,"{":95,"|":96,"}":97,"~":98,"¡":99,"¢":100,"£":101,"¤":102,"¥":103,"¦":104,"§":105,"¨":106,"©":107,"ª":108,"«":109,"¬":110,"®":111,"¯":112,"°":113,"±":114,"²":115,"³":116,"´":117,"µ":118,"¶":119,"·":120,"¸":121,"¹":122,"º":123,"»":124,"¼":125,"½":126,"¾":127,"¿":128,"À":129,"Á":130,"Â":131,"Ã":132,"Ä":133,"Å":134,"Æ":135,"Ç":136,"È":137,"É":138,"Ê":139,"Ë":140,"Ì":141,"Í":142,"Î":143,"Ï":144,"Ð":145,"Ñ":146,"Ò":147,"Ó":148,"Ô":149,"Õ":150,"Ö":151,"×":152,"Ø":153,"Ù":154,"Ú":155,"Û":156,"Ü":157,"Ý":158,"Þ":159,"ß":160,"à":161,"á":162,"â":163,"ã":164,"ä":165,"å":166,"æ":167,"ç":168,"è":169,"é":170,"ê":171,"ë":172,"ì":173,"í":174,"î":175,"ï":176,"ð":177,"ñ":178,"ò":179,"ó":180,"ô":181,"õ":182,"ö":183,"÷":184,"ø":185,"ù":186,"ú":187,"û":188,"ü":189,"ý":190,"þ":191,"ÿ":192,"Ā":193,"ā":194,"Ă":195,"ă":196,"Ą":197,"ą":198,"Ć":199,"ć":200,"Ĉ":201,"ĉ":202,"Ċ":203,"ċ":204,"Č":205,"č":206,"Ď":207,"ď":208,"Đ":209,"đ":210,"Ē":211,"ē":212,"Ĕ":213,"ĕ":214,"Ė":215,"ė":216,"Ę":217,"ę":218,"Ě":219,"ě":220,"Ĝ":221,"ĝ":222,"Ğ":223,"ğ":224,"Ġ":225,"ġ":226,"Ģ":227,"ģ":228,"Ĥ":229,"ĥ":230,"Ħ":231,"ħ":232,"Ĩ":233,"ĩ":234,"Ī":235,"ī":236,"Ĭ":237,"ĭ":238,"Į":239,"į":240,"İ":241,"ı":242,"Ĳ":243,"ĳ":244,"Ĵ":245,"ĵ":246,"Ķ":247,"ķ":248,"ĸ":249,"Ĺ":250,"ĺ":251,"Ļ":252,"ļ":253,"Ľ":254,"ľ":255,"Ŀ":256,"ŀ":257,"Ł":258,"ł":259,"Ń":260,"Ġt":261,"he":262,"Ġa":263,"ou":264,"Ġs":265,"Ġm":266,"in":267,"Ġw":268,"re":269,"ha":270,"nd":271,"Ġthe":272,"Ġb":273,"is":274,"or":275,"Ġf":276,"er":277,"ll":278,"it":279,"on":280,"Ġd":281,"Ġc":282,"es":283,"en":284,"Ġn":285,"Ġl":286,"Ġy":287,"Ġth":288,"ar":289,"Ġh":290,"Ġo":291,"Ġto":292,"Ġyou":293,"Ġp":294,"hat":295,"ĠI":296,"Ġhe":297,"ve":298,"ot":299,"st":300,"Ġand":301,"ow":302,"ing":303,"an":304,"Ġof":305,"om":306,"Ġg":307,"at":308,"Ġbe":309,"se":310,"Ġmy":311,"Ġin":312,"ce":313,"Ġha":314,"le":315,"ay":316,"ld":317,"ir":318,"et":319,"ed":320,"ut":321,"Ġme":322,"im":323,"ith":324,"'s":325,"Ġnot":326,"ch":327,"Ġthat":328,"Ġis":329,"gh":330,"And":331,"Ġfor":332,"ke":333,"Ġu":334,"our":335,"Ġwe":336,"oo":337,"ill":338,"Ġe":339,"her":340,"Ġwith":341,"ent":342,"Ġit":343,"Ġyour":344,"ad":345,"ri":346,"Ġthou":347,"Ġst":348,"'d":349,"Ġk":350,"ome":351,"Ġhis":352,"ght":353,"EN":354,"ord":355,"id":356,"The":357,"as":358,"Ġre":359,"Ġhave":360,"IN":361,"ly":362,"ra":363,"Ġli":364,"Ġhim":365,"ur":366,"Ġthis":367,"al":368,"IO":369,"Ġso":370,"Ġas":371,"Ġde":372,"Ġon":373,"ore":374,"ro":375,"AR":376,"hi":377,"ould":378,"ood":379,"ck":380,"ain":381,"ver":382,"est":383,"Ġthy":384,"Ġsha":385,"ess":386,"ea":387,"Ġdo":388,"Ġwill":389,"am":390,"Ġno":391,"Ġbut":392,"us":393,"and":394,"US":395,"if":396,"Ġse":397,"ge":398,"Th":399,"Ġall":400,"ake":401,"Ġsu":402,"To":403,"Ġher":404,"ru":405,"ion":406,"th":407,"Ġan":408,"ter":409,"ard":410,"Ġlo":411,"han":412,"ell":413,"ear":414,"Ġsp":415,"Ġthee":416,"Ġour":417,"Ġfa":418,"Ġshall":419,"Ġby":420,"UC":421,"il":422,"Ġare":423,"ING":424,"ĠC":425,"rom":426,"Ġne":427,"ho":428,"Ġkn":429,"AN":430,"ĠR":431,"That":432,"Ġv":433,"ER":434,"OR":435,"ast":436,"ct":437,"ous":438,"Ġwhat":439,"ight":440,"Ġsh":441,"ul":442,"ET":443,"Ġ'":444,"ant":445,"ES":446,"Ġup":447,"sel":448,"qu":449,"But":450,"art":451,"Ġgood":452,"row":453,"ine":454,"ath":455,"Ġlord":456,"hich":457,"nt":458,"ust":459,"'ll":460,"one":461,"Ġpr":462,"Ġcom":463,"Ġat":464,"Ġman":465,"What":466,"ĠM":467,"Ġwhe":468,"ĠE":469,"KING":470,"Ġam":471,"end":472,"ic":473,"Ġcon":474,"ble":475,"ry":476,"ong":477,"ie":478,"ive":479,"Ġbl":480,"Ġfrom":481,"ven":482,"ĠG":483,"For":484,"Ġshe":485,"em":486,"Ġgo":487,"are":488,"Ġmore":489,"IC":490,"out":491,"Ġthem":492,"au":493,"Ġwas":494,"oth":495,"other":496,"He":497,"Ġsir":498,"ol":499,"Ġnow":500,"ĠL":501,"Ġhat":502,"ost":503,"Ġif":504,"LO":505,"ind":506,"Ġthere":507,"Ġwould":508,"Ġknow":509,"Ġcan":510,"ers":511,"IUS":512,"ep":513,"self":514,"ARD":515,"ather":516,"fe":517,"ond":518,"res":519,"ate":520,"Ġsay":521,"Ġhere":522,"Ġlove":523,"Ġsw":524,"Ġtheir":525,"Ġbr":526,"pp":527,"Ġor":528,"--":529,"all":530,"ĠS":531,"Ġthan":532,"Ġthen":533,"Ġking":534,"Ġus":535,"ĠO":536,"ĠB":537,"Ġthey":538,"Ġar":539,"od":540,"My":541,"Ġlet":542,"Ġun":543,"ig":544,"Ġwor":545,"ure":546,"ink":547,"ĠH":548,"ort":549,"hy":550,"ĠV":551,"ame":552,"fore":553,"As":554,"Ġmay":555,"el":556,"Ġqu":557,"Ġcome":558,"ook":559,"Whe":560,"ish":561,"LI":562,"Ġwell":563,"KE":564,"ves":565,"Ġj":566,"Ġone":567,"Ġhath":568,"irst":569,"You":570,"Ġmake":571,"reat":572,"ak":573,"gain":574,"Ġmust":575,"ound":576,"ng":577,"Ġgra":578,"Ġwere":579,"Ġho":580,"ci":581,"Ġsee":582,"Ġlike":583,"ue":584,"eak":585,"TIO":586,"Ġshould":587,"ity":588,"Ġpro":589,"ĠP":590,"Ġsa":591,"Ġmad":592,"um":593,"Ġpl":594,"Ġfather":595,"RO":596,"AU":597,"Ġhad":598,"Ġdid":599,"pe":600,"ime":601,"Ġupon":602,"ice":603,"ON":604,"Ġtoo":605,"ence":606,"ĠW":607,"ward":608,"ist":609,"Ġdeath":610,"own":611,"man":612,"ose":613,"Ġen":614,"un":615,"IS":616,"ful":617,"nce":618,"Ġr":619,"Ġpo":620,"Ġspeak":621,"de":622,"entle":623,"io":624,"Ġout":625,"pt":626,"Ġwhich":627,"ICH":628,"Ġfri":629,"OL":630,"DU":631,"Ġagain":632,"DUKE":633,"Ġhow":634,"EL":635,"ick":636,"ĠA":637,"Ġtru":638,"Ġheart":639,"Ġyet":640,"Ġhand":641,"CA":642,"Thou":643,"very":644,"ICHARD":645,"ENTIO":646,"With":647,"ign":648,"Ġsome":649,"ance":650,"Ġwho":651,"Which":652,"If":653,"Ġwhen":654,"ies":655,"Ġmar":656,"ire":657,"Ġmine":658,"Ġhon":659,"har":660,"orn":661,"Ġoff":662,"ince":663,"INC":664,"In":665,"ack":666,"ĠY":667,"Ġson":668,"Ġdis":669,"Ġal":670,"'t":671,"We":672,"uch":673,"wn":674,"Ġhea":675,"First":676,"oy":677,"Ġtime":678,"Ġhear":679,"AB":680,"ec":681,"Ġsuch":682,"ness":683,"LA":684,"Ġbrother":685,"Of":686,"Ġblood":687,"ither":688,"Ġab":689,"UE":690,"Why":691,"Ġthese":692,"No":693,"Ġgive":694,"Ġfo":695,"Ġday":696,"ĠII":697,"Ġear":698,"ĠRICHARD":699,"TER":700,"Ġro":701,"ise":702,"Ġex":703,"Ġlife":704,"This":705,"eet":706,"Ġtell":707,"So":708,"Ġlook":709,"Ġthink":710,"UCH":711,"oul":712,"Ġword":713,"Ġey":714,"Ġwhere":715,"ag":716,"age":717,"een":718,"ther":719,"GLO":720,"Ġtake":721,"UCES":722,"Ġfriend":723,"GLOUCES":724,"GLOUCESTER":725,"ef":726,"erv":727,"ady":728,"rown":729,"Ġdes":730,"ings":731,"ave":732,"not":733,"Ġgentle":734,"urse":735,"How":736,"RY":737,"Ġri":738,"ase":739,"QUE":740,"way":741,"INCENTIO":742,"QUEEN":743,"Ġlea":744,"tis":745,"ĠOF":746,"Ġart":747,"Ġmost":748,"Where":749,"Ġhonour":750,"LAN":751,"Ġmuch":752,"Ġsl":753,"Ġwar":754,"Ġfl":755,"urn":756,"Ġmade":757,"ment":758,"Now":759,"Ġhast":760,"Ġtw":761,"Ġfear":762,"ĠT":763,"Ġbet":764,"ENRY":765,"aught":766,"Is":767,"LE":768,"ber":769,"ff":770,"ĠGod":771,"ough":772,"ved":773,"Ġbre":774,"cc":775,"ower":776,"Ġnever":777,"ĠVINCENTIO":778,"Be":779,"ap":780,"igh":781,"ĠK":782,"Ġgreat":783,"Ġfair":784,"Who":785,"ee":786,"tle":787,"Ġmen":788,"orrow":789,"Ġcou":790,"Ġnew":791,"ĠRome":792,"aster":793,"uke":794,"iz":795,"old":796,"ORK":797,"Ġpart":798,"ation":799,"INIUS":800,"ss":801,"ree":802,"ide":803,"Or":804,"Ġcall":805,"ple":806,"Ġany":807,"Ġheaven":808,"Ġad":809,"Ġcomm":810,"It":811,"Your":812,"Ġstand":813,"Ġcannot":814,"Ġtrue":815,"DW":816,"Ġname":817,"Ġbeen":818,"ears":819,"DWARD":820,"Ġcl":821,"Ġpre":822,"Ġsweet":823,",--":824,"Ġdoth":825,"Ġpray":826,"hing":827,"PET":828,"UM":829,"Ġnoble":830,"LUC":831,"MEN":832,"TH":833,"Ġown":834,"Ġple":835,"ass":836,"ĠD":837,"ouse":838,"Ġper":839,"Ay":840,"Come":841,"ull":842,"There":843,"Ġwr":844,"Ġdone":845,"ife":846,"aw":847,"Ġtr":848,"Ġway":849,"Ġother":850,"Ġhead":851,"Ġmean":852,"li":853,"red":854,"When":855,"dward":856,"Ġnor":857,"EO":858,"MEO":859,"Ġsc":860,"Ġsoul":861,"Ġpres":862,"ROMEO":863,"ace":864,"ving":865,"Ġnight":866,"Ġbear":867,"ENIUS":868,"aint":869,"ĠCl":870,"Ġworld":871,"MENENIUS":872,"ger":873,"Ġbefore":874,"ause":875,"Ġboth":876,"Ġqueen":877,"per":878,"Then":879,"aughter":880,"RUCH":881,"ock":882,"Ġchi":883,"Here":884,"PETRUCH":885,"PETRUCHIO":886,"OM":887,"able":888,"Ġvery":889,"Ġdead":890,"TES":891,"By":892,"Ġra":893,"ite":894,"Than":895,"the":896,"Ġke":897,"ab":898,"les":899,"ĠF":900,"Ġdown":901,"to":902,"Ġapp":903,"Ġmyself":904,"Ġcont":905,"GR":906,"HA":907,"Ġwh":908,"Ġrem":909,"ĠLord":910,"Ġarm":911,"Ġthus":912,"IOLAN":913,"ilt":914,"ORIOLAN":915,"ORIOLANUS":916,"CORIOLANUS":917,"Sec":918,"Ġleave":919,"Second":920,"Ġbeing":921,"ction":922,"ĠEdward":923,"Nor":924,"sw":925,"Ġunt":926,"ress":927,"Ġgrace":928,"less":929,"Ġbeg":930,"Ġeyes":931,"BA":932,"land":933,"Ġmother":934,"ran":935,"Ġma":936,"Ġold":937,"Ġim":938,"INA":939,"ĠEDWARD":940,"itiz":941,"itizen":942,"ps":943,"Ġlong":944,"Ġever":945,"ĠMar":946,"Ġlive":947,"Ġchild":948,"Let":949,"me":950,"Ġwife":951,"She":952,"Ġaway":953,"Ġrep":954,"ĠIII":955,"Ġwom":956,"Ġpoor":957,"Ġfriends":958,"come":959,"for":960,"wick":961,"Ġaf":962,"Ġmight":963,"nder":964,"Ġstay":965,"eace":966,"ks":967,"oud":968,"Ġdie":969,"atch":970,"led":971,"ĠJ":972,"Ġru":973,"arwick":974,"Ġcomes":975,"Ġcons":976,"Ġcrown":977,"ows":978,"Ġmany":979,"Ġpe":980,"Tis":981,"hall":982,"ison":983,"Ġle":984,"ĠYORK":985,"lo":986,"uck":987,"iss":988,"Ġhouse":989,"Ġhar":990,"Ġthought":991,"Ġrest":992,"ISAB":993,"ELLA":994,"ISABELLA":995,"ian":996,"erc":997,"Ġcour":998,"RAN":999,"Ġent":1000,"Ġlie":1001,"che":1002,"Ġset":1003,"JU":1004,"well":1005,"ors":1006,"atter":1007,"LIET":1008,"ONTES":1009,"ĠWarwick":1010,"LEONTES":1011,"JULIET":1012,"Nay":1013,"int":1014,"ittle":1015,"Ġdaughter":1016,"Ġgone":1017,"Ġbetter":1018,"MI":1019,"rant":1020,"ought":1021,"Ġprince":1022,"DY":1023,"His":1024,"Ġtong":1025,"Ġwit":1026,"Ġnothing":1027,"CE":1028,"VOL":1029,"ENCE":1030,"LADY":1031,"BR":1032,"TA":1033,"cl":1034,"ied":1035,"Ġkeep":1036,"Go":1037,"Well":1038,"ces":1039,"ious":1040,"os":1041,"Ġsle":1042,"Ġres":1043,"hard":1044,"Ġnews":1045,"SIC":1046,"ft":1047,"ier":1048,"Ġtri":1049,"Ġmo":1050,"ret":1051,"ont":1052,"Ġthose":1053,"Ġgri":1054,"ool":1055,"une":1056,"SICINIUS":1057,"Not":1058,"Ġlittle":1059,"Ġlords":1060,"Ġagainst":1061,"ford":1062,"Ġbest":1063,"Ġhour":1064,"Ġhence":1065,"ardon":1066,"akes":1067,"lse":1068,"Ġacc":1069,"sed":1070,"Ġface":1071,"ult":1072,"Ġfoll":1073,"On":1074,"ew":1075,"ud":1076,"ark":1077,"Ġyoung":1078,"Ġend":1079,"ork":1080,"Ġthing":1081,"Ġstill":1082,"Ġkind":1083,"ield":1084,"ST":1085,"Ġpri":1086,"Ġpur":1087,"alk":1088,"Thy":1089,"Ġcomp":1090,"LUCIO":1091,"ale":1092,"ins":1093,"ert":1094,"Ġput":1095,"Ġpower":1096,"ĠIV":1097,"ichard":1098,"Ġtwo":1099,"Ġcha":1100,"Ġhimself":1101,"Pro":1102,"iness":1103,"Ġfirst":1104,"Ġpeace":1105,"Ġgu":1106,"Ġelse":1107,"ried":1108,"Ġdear":1109,"cious":1110,"Sir":1111,"ail":1112,"ty":1113,"ason":1114,"hile":1115,"Ġsub":1116,"Ġunto":1117,"ile":1118,"ray":1119,"Ġtill":1120,"Ġsm":1121,"uty":1122,"RI":1123,"ZAB":1124,"ect":1125,"Ġtra":1126,"Ġbid":1127,"Ġback":1128,"Ġdre":1129,"Ġhus":1130,"ETH":1131,"ĠELI":1132,"Ġtherefore":1133,"Ġearth":1134,"Ġwords":1135,"Ġcount":1136,"ZABETH":1137,"ĠELIZABETH":1138,"Have":1139,"band":1140,"ius":1141,"men":1142,"ople":1143,"yal":1144,"Ġfind":1145,"Ġcould":1146,"Ġtongue":1147,"orse":1148,"Ġlady":1149,"Ġthine":1150,"Ġneed":1151,"ĠYork":1152,"HENRY":1153,"get":1154,"tw":1155,"Ġtre":1156,"Ġfell":1157,"enry":1158,"Ġhigh":1159,"Ġforth":1160,"Ġhope":1161,"MER":1162,"St":1163,"lp":1164,"Ġhome":1165,"vere":1166,"eth":1167,"Ġseem":1168,"eech":1169,"ĠRomeo":1170,"Ġhusband":1171,"CL":1172,"Ġduke":1173,"Ġright":1174,"GE":1175,"WAR":1176,"WIC":1177,"fort":1178,"ĠWhat":1179,"rer":1180,"Ġban":1181,"uth":1182,"Ġthough":1183,"ĠVI":1184,"WARWIC":1185,"WARWICK":1186,"UT":1187,"ach":1188,"ix":1189,"Ġmind":1190,"Ġbra":1191,"ister":1192,"Ġche":1193,"Ġchar":1194,"hip":1195,"ĠHENRY":1196,"Ġpeople":1197,"Nurse":1198,"ds":1199,"ged":1200,"ĠCitizen":1201,"ren":1202,"They":1203,"ĠHenry":1204,"HAM":1205,"IAN":1206,"LET":1207,"PU":1208,"eed":1209,"Ġbri":1210,"Ġchan":1211,"Ġlaw":1212,"ĠRichard":1213,"Ġshow":1214,"Ġconf":1215,"Ġhands":1216,"PULET":1217,"EY":1218,"be":1219,"Ġmaster":1220,"Ġwhy":1221,"Ġco":1222,"Ġcause":1223,"Ġgl":1224,"Ġonce":1225,"Ġsaid":1226,"Ġimp":1227,"Good":1228,"MIO":1229,"Shall":1230,"Ġbod":1231,"Ġnone":1232,"ousin":1233,"Ġjoy":1234,"ervant":1235,"All":1236,"bt":1237,"Ġfort":1238,"Ġbring":1239,"Yet":1240,"Ġdou":1241,"ates":1242,"Ġevery":1243,"UCKING":1244,"BRUT":1245,"UCKINGHAM":1246,"BRUTUS":1247,"BRO":1248,"BUCKINGHAM":1249,"From":1250,"TRAN":1251,"iet":1252,"Ġmist":1253,"Ġpass":1254,"ird":1255,"Ġlight":1256,"INGBRO":1257,"ESS":1258,"ĠBOL":1259,"TRANIO":1260,"INGBROKE":1261,"ĠBOLINGBROKE":1262,"Do":1263,"Will":1264,"lt":1265,"vost":1266,"Ġwo":1267,"Ġnat":1268,"Ġthr":1269,"Ġroyal":1270,"swer":1271,"PER":1272,"TIS":1273,"cle":1274,"Ġtears":1275,"its":1276,"Ġcame":1277,"ary":1278,"ĠMAR":1279,"Ġwhose":1280,"Ġplease":1281,"lf":1282,"vy":1283,"ory":1284,"Ġpardon":1285,"roke":1286,"ĠAn":1287,"Cl":1288,"GAR":1289,"NE":1290,"pose":1291,"Ġbes":1292,"Ġboy":1293,"Ġfull":1294,"arry":1295,"Ġheard":1296,"Ġhapp":1297,"Ġdev":1298,"Ġjust":1299,"Ġwrong":1300,"Ġpresent":1301,"ĠMARGAR":1302,"ĠMARGARET":1303,"ATH":1304,"eel":1305,"Ġsince":1306,"Ġmis":1307,"ens":1308,"Ġland":1309,"Ġlast":1310,"Ġere":1311,"Ġstate":1312,"Ġplace":1313,"MIL":1314,"bl":1315,"sand":1316,"Ġmeet":1317,"Ġunder":1318,"Ġkill":1319,"Ġafter":1320,"HOR":1321,"cent":1322,"Ġsorrow":1323,"ition":1324,"Ġcare":1325,"Ġthousand":1326,"esty":1327,"ANGE":1328,"ORD":1329,"Ġhold":1330,"GRE":1331,"ANGELO":1332,"CU":1333,"Our":1334,"Ġhelp":1335,"ARINA":1336,"arence":1337,"Ġwhom":1338,"Ġfollow":1339,"KATH":1340,"day":1341,"Ġfar":1342,"Ġless":1343,"Ġhither":1344,"ceive":1345,"irt":1346,"Ġweep":1347,"Ġshame":1348,"selves":1349,"cius":1350,"Ġenem":1351,"Ġabout":1352,"Ġeye":1353,"KATHARINA":1354,"iol":1355,"Ġfal":1356,"Ġfool":1357,"ons":1358,"Ġpat":1359,"urde":1360,"Ġsun":1361,"Ġanswer":1362,"air":1363,"Ġch":1364,"asure":1365,"Ġfall":1366,"Ġmaid":1367,"LUS":1368,"Un":1369,"Up":1370,"ount":1371,"Ġbus":1372,"Ġcousin":1373,"thy":1374,"ESCA":1375,"Ġhate":1376,"Ġgracious":1377,"Ġgentleman":1378,"ĠKing":1379,"Ġgrief":1380,"ESCALUS":1381,"An":1382,"ject":1383,"ove":1384,"Ġmakes":1385,"Ġinto":1386,"imes":1387,"Ġstri":1388,"Hath":1389,"iv":1390,"ild":1391,"Ġstre":1392,"ĠEng":1393,"Ġwoman":1394,"DUCH":1395,"Ġturn":1396,"Ġhum":1397,"Ġbel":1398,"alt":1399,"Ġdost":1400,"Ġcomfort":1401,"ices":1402,"Ġcoun":1403,"ĠDuke":1404,"Ġcourt":1405,"Ġsleep":1406,"urderer":1407,"DUCHESS":1408,"Lord":1409,"pher":1410,"Ġtalk":1411,"itor":1412,"Ġover":1413,"Ġbody":1414,"morrow":1415,"Ġwilt":1416,"Ġbu":1417,"Ġgr":1418,"ute":1419,"gelo":1420,"deed":1421,"ĠMarcius":1422,"IA":1423,"ience":1424,"Ġi":1425,"ised":1426,"Ġbed":1427,"Ġfault":1428,"Ġatt":1429,"ieve":1430,"Ġprove":1431,"Ġplay":1432,"CAMIL":1433,"ĠClarence":1434,"CAMILLO":1435,"God":1436,"ere":1437,"ily":1438,"Ġsound":1439,"Ġdra":1440,"ans":1441,"omet":1442,"Ġinst":1443,"Ġwel":1444,"ade":1445,"Ġret":1446,"Ġdeed":1447,"Ġthank":1448,"TEN":1449,"Ġser":1450,"Ġbo":1451,"Ġfight":1452,"Ġindeed":1453,"illain":1454,"hold":1455,"Ġvo":1456,"Ġsword":1457,"ĠAngelo":1458,"HORTEN":1459,"Ġfalse":1460,"HORTENS":1461,"FRI":1462,"Sh":1463,"Ġuse":1464,"Ġeven":1465,"Ġsovere":1466,"Ġanother":1467,"Ġgrave":1468,"Ġadv":1469,"Provost":1470,"Ġfellow":1471,"Upon":1472,"HORTENSIO":1473,"FRIAR":1474,",'":1475,"PTIS":1476,"eal":1477,"Ġcur":1478,"Ġhas":1479,"Ġem":1480,"ury":1481,"pect":1482,"BAPTIS":1483,"Ġbanish":1484,"Ġfortune":1485,"BAPTISTA":1486,"CUS":1487,"COM":1488,"TOL":1489,"YCUS":1490,"pl":1491,"pen":1492,"ouch":1493,"Ġmerc":1494,"Ġmatter":1495,"Ġwant":1496,"Ġreven":1497,"Ġass":1498,"Ġsend":1499,"Ġprison":1500,"fect":1501,"AUTOL":1502,"Ġrather":1503,"Ġcountry":1504,"Ġdoubt":1505,"COMINIUS":1506,"AUTOLYCUS":1507,".'":1508,"Are":1509,"Even":1510,"More":1511,"Ġwish":1512,"Ġyears":1513,"Ġreason":1514,"Ġlies":1515,"Ġonly":1516,"ARENCE":1517,"Third":1518,"Ġvirt":1519,"Ġtruth":1520,"Would":1521,"ior":1522,"ms":1523,"of":1524,"rance":1525,"ĠBut":1526,"Ġdan":1527,"Ġpers":1528,"any":1529,"Ġbreath":1530,"Ġarms":1531,"Ġdream":1532,"CLARENCE":1533,"pherd":1534,"BEN":1535,"MAR":1536,"NOR":1537,"dd":1538,"der":1539,"Ġsent":1540,"ener":1541,"Ġgi":1542,"Ġstra":1543,"Ġshalt":1544,"Ġdisc":1545,"VOLIO":1546,"Clown":1547,"Ġbusiness":1548,"BENVOLIO":1549,"Al":1550,"At":1551,"PRO":1552,"SPER":1553,"by":1554,"hed":1555,"Ġsen":1556,"Ġprom":1557,"Ġholy":1558,"Ġenough":1559,"erving":1560,"Ġcommand":1561,"UMIO":1562,"GRUMIO":1563,"PROSPER":1564,"PROSPERO":1565,"ia":1566,"ken":1567,"Ġsea":1568,"Ġwind":1569,"itt":1570,"Ġcra":1571,"Ġlay":1572,"ars":1573,"Ġpity":1574,"ator":1575,"Ġbea":1576,"Ġhang":1577,"Ġstran":1578,"Ġsold":1579,"Ġspir":1580,"Ġfare":1581,"Ġproud":1582,"ĠMurderer":1583,"Ġswear":1584,"Ġcontent":1585,"MERCU":1586,"MERCUTIO":1587,"ike":1588,"Ġdare":1589,"eter":1590,"Ġlives":1591,"Ġdep":1592,"Ġsec":1593,"Ġvillain":1594,"gainst":1595,"ĠKate":1596,"LUCENTIO":1597,"Ġremem":1598,"Ġnature":1599,"Ġwelcome":1600,"POM":1601,"Tw":1602,"com":1603,"unt":1604,"Ġtend":1605,"ham":1606,"Ġfree":1607,"Ġgre":1608,"Ġget":1609,"Ġint":1610,"Ġwithin":1611,"Ġkiss":1612,"ester":1613,"ĠCome":1614,"Ġgods":1615,"Ġsaw":1616,"Ġmadam":1617,"LAND":1618,"Ġhappy":1619,"Ġsovereign":1620,"POMP":1621,"LINA":1622,"PAU":1623,"apt":1624,"Ġserv":1625,"Ġsister":1626,"Ġsomet":1627,"hal":1628,"Ġfoul":1629,"Ġcity":1630,"vers":1631,"Were":1632,"Ġbeseech":1633,"PAULINA":1634,"YORK":1635,"ient":1636,"use":1637,"ery":1638,"Ġden":1639,"Ġyield":1640,"Ġthree":1641,"Ġoath":1642,"Ġyours":1643,"onder":1644,"ague":1645,"Ġbreak":1646,"Ġmeans":1647,"Ġsubject":1648,"gether":1649,"GREMIO":1650,"POMPEY":1651,"NIA":1652,"OLI":1653,"POLI":1654,"XEN":1655,"balt":1656,"ybalt":1657,"ĠNor":1658,"Ġaw":1659,"Ġmer":1660,"Ġwhile":1661,"Ġborn":1662,"Ġthings":1663,"Ġhorse":1664,"anc":1665,"usic":1666,"ANT":1667,"Ġbloody":1668,"Ġlooks":1669,"eft":1670,"UMNIA":1671,"like":1672,"ches":1673,"VOLUMNIA":1674,"POLIXEN":1675,"POLIXENES":1676,"GON":1677,"Her":1678,"rong":1679,"up":1680,"ues":1681,"Ġtem":1682,"Ġwin":1683,"Ġwound":1684,"Ġfire":1685,"enger":1686,"Ġyourself":1687,"Ġsupp":1688,"Ġspo":1689,"Ġfaith":1690,"INGS":1691,"ĠServing":1692,"Ġmaj":1693,"STINGS":1694,"Ġtraitor":1695,"centio":1696,"ĠServingman":1697,"RENCE":1698,"Say":1699,"bs":1700,"broke":1701,"rem":1702,"Ġdru":1703,"Ġlam":1704,"essenger":1705,"ĠLAU":1706,"Ġmark":1707,"Ġcommon":1708,"HASTINGS":1709,"Ġchildren":1710,"ertain":1711,"Ġmistress":1712,"ĠLAURENCE":1713,"BY":1714,"BER":1715,"Ġcond":1716,"Ġbeat":1717,"Ġrequ":1718,"Ġdef":1719,"Ġval":1720,"Ġuncle":1721,"Therefore":1722,"form":1723,"Ġmajesty":1724,"CLI":1725,"FF":1726,"Look":1727,"Was":1728,"Ġaff":1729,"Ġsin":1730,"Ġmet":1731,"Ġlate":1732,"Ġleft":1733,"Ġtold":1734,"Ġsoon":1735,"Ġseen":1736,"Ġsave":1737,"Ġdays":1738,"UMBER":1739,"THUMBER":1740,"Ġwoe":1741,"ĠEngland":1742,"NORTHUMBER":1743,"Ġtender":1744,"CLIFF":1745,"NORTHUMBERLAND":1746,"ID":1747,"Take":1748,"bed":1749,"ever":1750,"ring":1751,"ten":1752,"Ġsight":1753,"Ġmon":1754,"Ġgener":1755,"ides":1756,"idow":1757,"Ġdoes":1758,"Though":1759,"Ġreturn":1760,"Ġmercy":1761,"Ġfarewell":1762,"ac":1763,"dom":1764,"mp":1765,"ĠAN":1766,"hes":1767,"Ġsit":1768,"Ġsad":1769,"rel":1770,"Ġdeep":1771,"ters":1772,"Ġgold":1773,"unes":1774,"Ġmarry":1775,"Ġheavy":1776,"Ġfoot":1777,"Ġwarrant":1778,"ĠJul":1779,"Ġpurpose":1780,"Ġthrough":1781,"Ġdanger":1782,"ĠANNE":1783,"Ah":1784,"Did":1785,"Give":1786,"PR":1787,"aim":1788,"ict":1789,"mer":1790,"so":1791,"und":1792,"vent":1793,"Ġill":1794,"Ġcho":1795,"Ġcold":1796,"Ġnurse":1797,"Ġtogether":1798,"Ġgrow":1799,"ours":1800,"ifford":1801,"Ġsure":1802,"earn":1803,"CAPULET":1804,"ignior":1805,"INCE":1806,"Ġdeser":1807,"ments":1808,"PRINCE":1809,"az":1810,"aid":1811,"ca":1812,"oint":1813,"Ġtimes":1814,"oriol":1815,"ingbroke":1816,"ceed":1817,"Ġwithout":1818,"enty":1819,"Ġask":1820,"ross":1821,"ush":1822,"Ġlost":1823,"arewell":1824,"olingbroke":1825,"Ġpluck":1826,"Ġreport":1827,"Ġliege":1828,"Ġbelieve":1829,"Ġspirit":1830,"ling":1831,"sh":1832,"xt":1833,"Ġair":1834,"Ġage":1835,"outh":1836,"Ġwat":1837,"Ġheir":1838,"ets":1839,"ains":1840,"Ġthyself":1841,"ift":1842,"Ġloss":1843,"ĠMont":1844,"Ġsays":1845,"ĠBolingbroke":1846,"Whose":1847,"One":1848,"Ġstrange":1849,"ALO":1850,"Had":1851,"ial":1852,"no":1853,"ner":1854,"Ġbat":1855,"Ġcry":1856,"Ġlearn":1857,"ced":1858,"Ġsuff":1859,"aking":1860,"Ġears":1861,"Ġhaste":1862,"ĠClifford":1863,"Ġentreat":1864,"Ġdevil":1865,"Ġground":1866,"Should":1867,"Ġperson":1868,"ĠJuliet":1869,"Like":1870,"Wh":1871,"ges":1872,"night":1873,"Ġmur":1874,"ined":1875,"Ġfly":1876,"Ġtoward":1877,"Ġpast":1878,"oman":1879,"let":1880,"Ġfast":1881,"Ġvis":1882,"aud":1883,"ĠLu":1884,"Ġpoint":1885,"Ġfriar":1886,"Ġdisp":1887,"Ġslain":1888,"Ġbetw":1889,"ĠFrance":1890,"ixt":1891,"Ġjustice":1892,"Ġstraight":1893,"Ġremember":1894,"APULET":1895,"FL":1896,"FID":1897,"IZ":1898,"May":1899,"Some":1900,"Ġord":1901,"Ġsil":1902,"ina":1903,"Ġbold":1904,"Ġcurse":1905,"Ġnear":1906,"ution":1907,"Ġstrong":1908,"These":1909,"ĠCAPULET":1910,"ORIZ":1911,"Ġworthy":1912,"Ġquick":1913,"AUFID":1914,"entleman":1915,"Ġtrust":1916,"Ġalone":1917,"Ġdesire":1918,"Ġinstru":1919,"Ġbeauty":1920,"Ġservice":1921,"FLORIZ":1922,"AUFIDIUS":1923,"FLORIZEL":1924,"Can":1925,"SE":1926,"Tell":1927,"VER":1928,"gs":1929,"ning":1930,"ship":1931,"with":1932,"Ġtouch":1933,"Ġfound":1934,"ithe":1935,"ĠIs":1936,"adam":1937,"Ġready":1938,"ION":1939,"Ġbrought":1940,"ured":1941,"Ġposs":1942,"ĠTybalt":1943,"Ġrun":1944,"Ġhard":1945,"Ġenemy":1946,"Ġrevenge":1947,"Ġgeneral":1948,"audio":1949,"!'":1950,"Ha":1951,"ible":1952,"vo":1953,"ĠHere":1954,"Ġwoo":1955,"Ġduty":1956,"enator":1957,"Ġgrant":1958,"Ġinf":1959,"cept":1960,"Ġitself":1961,"amill":1962,"Ġlose":1963,"aunt":1964,"Ġknows":1965,"Ġcanst":1966,"ĠSenator":1967,"inks":1968,"umber":1969,"Ġmarried":1970,"Ġthoughts":1971,"Ġcharge":1972,"Against":1973,"Bec":1974,"CIUS":1975,"RICHARD":1976,"Sp":1977,"cester":1978,"eep":1979,"gu":1980,"lou":1981,"sue":1982,"ua":1983,"ĠYou":1984,"Ġmorn":1985,"Ġwear":1986,"riage":1987,"Ġread":1988,"Ġdeli":1989,"Ġspeed":1990,"Ġquar":1991,"Ġprof":1992,"Ġtwenty":1993,"Ġstands":1994,"BAST":1995,"Shepherd":1996,"ched":1997,"Ġhours":1998,"Ġconfess":1999,"Ġstreng":2000,"SEBAST":2001,"ithee":2002,"SEBASTIAN":2003,"OW":2004,"cess":2005,"ĠN":2006,"Ġmock":2007,"Ġfur":2008,"Ġfore":2009,"Ġfield":2010,"ones":2011,"Ġdiv":2012,"Ġcar":2013,"Ġyouth":2014,"Ġpost":2015,"Ġhell":2016,"ingham":2017,"Ġhalf":2018,"oop":2019,"Thus":2020,"ĠRi":2021,"olk":2022,"fection":2023,"ĠHast":2024,"Ġjud":2025,"ump":2026,"Ġexec":2027,"Ġfearful":2028,"Ġcounsel":2029,"amillo":2030,"BION":2031,"Com":2032,"DEL":2033,"Till":2034,"most":2035,"pare":2036,"Ġter":2037,"Ġmin":2038,"Ġwret":2039,"Ġbos":2040,"Ġpar":2041,"Ġbehold":2042,"Ġinc":2043,"Ġeach":2044,"ads":2045,"Ġrec":2046,"Ġdel":2047}